0000000100111111
0000000011111111
1001000100011010
0001001100100100
0000111100100110
1000111100110010
1001000011100110
0001001010000100
0000110000100010
1000110010001110
0000001111110011
1000010010011011
1000001100011100
0000010100001011
0000011111111101
1000011110010110
0000011000001101
1000011111110111
1000000111101010
0000000111000001
1000001000101101
0000000101101001
1000001111110110
0000010110001011
0000001001001111
0000000100001011
0000001110100011
1000000110011100
1000000010101000
1000000010110000
0000101101001111
1000110110010001
0001000110010100
1001000100010100
0001100011010001
1001100111110001
1000010011110010
0000011000100001
0000010101011101
1000100011001010
0000000110011000
1000000101010000
1000000100100110
0000001011010111
0000010011000011
1000010100010000
0000000001101000
0000000001110000
0000000101010010
1000000111001011
0000000011001111
1000000000100001
1000010111110010
0000001011111010
1000000011010011
0000001001001001
1000001101100100
0000001110100001
0000000111000010
0000000001010111
1001010001111110
0001010111111000
1000001011110000
0000001110101111
0000001100101000
1000010100111000
1000000010101110
0000001001110111
0000000111000111
0000000011100101
0000011111100010
1000011111010101
0000000110010011
1000000101110110
0000011010100110
1000011111110001
1000000000111000
1000000110001010
0000000110110010
1000000111011111
0000011011100111
1000010100011000
0000001000101111
0000000000111110
0000000000000010
0000000010011110
0000000110010001
1000001001010001
0000000110001111
1000000101101111
1000001100100100
0000001000111001
1000001010000010
0000010000101010
1000010011111110
0000011000110110
0000000000001111
1000000101100111
1000010110000110
0000011000100011
0000101010101101
1000101001011111
0000001101101110
1000010111111001
1000000111010000
0000000111011111
1000010111100110
0000010111011110
1000010100110011
0000010111100000
1000010011001011
0000011010001101
0000000010011110
1000000110001110
1000010010010101
0000001111101000
0000011001100000
1000010000000000
1000010111110101
0000010111000111
0000000011110011
0000000010111010
1000000001100011
0000000010110111
0000010110101011
1000011010111010
0000011101001000
1000011010111110
1000000111100010
0000001001100111
0000110101111011
1000110100100100
0000001100000000
1000010011000100
1000011010101011
0000100011000111
1000010000110010
0000010100000010
0000011110010001
1000011110000001
0000001011011110
1000000111001000
1000010001011111
0000010010011011
1000001101011001
0000000011000011
1000001011101001
0000000011110111
0000001011100010
1000000100000101
0000100101011001
1000101110110100
1000001110000100
0000001100001110
0000101100011001
1000101100001111
1000000100111101
0000000101111001
0000001011100110
1000001110110001
1000000000010111
1000000000011101
0000101010100000
1000100111001000
0000000001011010
0000000001000010
0000101001111001
1000101101011101
1000001010000000
0000000111111101
1000010101101001
0000010110110111
0000010111101000
1000001101111000
0000011110100011
1000010111000110
0000011101001011
1000010111010100
0000010001100100
1000010101001100
0000000100110100
1000000001110011
1000000010111011
0000001010000000
