0000000011100111
1000000000110111
0000001111001111
1000000110111001
1000100000111010
1000010101010010
0000000010011101
0000001111111110
1000011100010101
1000000101100011
1000000100011010
0000000001001100
1000000111101011
0000001001101101
1000000000110011
1000000011101010
0000000011011010
0000001010100100
0000000001000010
0000010010000100
1000000010011100
1000000110000101
0000010011001111
0000000001110010
0000001101111101
1000000110001011
0000000000111011
0000000000011100
1000000111110110
0000000001001001
1000000100111001
1000010000111101
0000001100000101
1000000010010001
0000000101101110
0000010000110111
1000000001011111
0000010000000000
0000000101111001
0000001000110100
0000010011111110
0000000100100011
0000000100111101
0000001101100100
0000001010011110
1000000110100101
1000001000110000
1000010111000001
1000000001110110
1000010100100000
1000100010011010
0000010110101100
1000000000101110
1000001100000101
1000001111100101
1000010100101000
1000000001000100
1000001100011000
0000010011011011
1000001111001000
0000000100001111
1000000111101001
0000001101010001
0000010001000110
1000001100100011
1000011110010010
0000001101000000
1000010001110100
0000000001001110
0000010001110010
0000001010110010
1000001011000000
1000000110011100
1000000101101100
0000001001111011
1000100001001100
1000001010011111
1000100010100111
1000000110000011
0000001001010111
1000000000000001
1000100011000100
0000000000000101
0000011101001101
1000000110000110
1000001011110100
0000010010111010
0000010001010001
0000001101110000
0000010011100010
1000000011110100
1000001000101110
0000000010110110
1000001010110111
0000000001100001
1000001110000101
0000011110100100
0000000001011111
1000000110110011
0000000111111111
0000000001010101
1000001010100010
0000001011000100
0000001100010101
0000000001000011
0000000101000101
0000000000011110
0000001101100011
1000001010011101
1000001001011100
0000001100011011
0000001001000010
0000000000100110
1000001101010000
0000001000101110
0000000010010100
0000000000010001
1000000001101011
0000001100000010
1000001011000001
1000001110101101
0000000010101000
1000001110001000
0000000110100101
0000000110000110
1000001011001100
0000000011011100
0000000110110101
0000000010011101
0000000110011000
0000000100001100
0000000101111110
0000000111101111
0000000100011011
1000000010101011
1000000001001111
0000000100001101
1000001100010100
1000000110110000
0000001001001001
0000000000010100
0000001001001010
0000100101110001
0000001001011010
1000001011010110
0000001101100011
0000010000001100
0000001100100101
0000000000100000
0000001100111000
0000001001001001
0000001111100101
0000000010110001
1000000011110111
0000000110101100
0000000001100011
1000000110010010
0000011011110111
0000000110010010
1000001110101100
0000001100100101
0000000111001010
0000000000000000
0000001100010000
1000001010010110
1000001010100000
0000000101111111
0000100011000001
0000001011111101
0000100010001111
1000001011000111
0000000110010111
1000000000000010
0000101001100010
1000000000001101
0000111011111000
1000001010001001
0000001101011000
0000000100111110
0000000001110010
0000000110110101
0000000110010100
0000000010000001
1000000100011000
