1000000001100011
1000000001010100
1000000010110100
1000000000001010
1000000101011001
1000000101110011
0000000000101100
1000000000101001
1000000100111100
1000001100010011
1000000011110100
1000000011001011
0000010101011000
0000000001011111
1000000000100011
1000000010010011
1000000001111011
1000000000011001
1000000001101101
1000000010100010
1000000001100011
1000000000100101
0000000000011010
0000000000101100
0000000000010001
0000000000000001
0000000000000000
0000001001100000
0000000011010000
0000000001100101
1000000101011111
0000000000001111
1000000011101110
1000000010111000
1000000000001100
0000000000000010
1000000001001001
1000000001010100
1000001000111001
1000001000110100
1000000100111100
1000000000111110
0000010001001001
0000000111110001
1000000000110100
1000000000110010
0000000000010111
1000000110001011
1000000101011110
0000000000000000
0000000000011001
1000000000001011
0000000000010110
1000000000000101
1000000100001101
1000000001100010
1000000001000011
0000000000011010
1000000110101000
0000000100000101
1000000010001101
1000000100100011
0000000000110000
1000000001010100
1000000001010111
0000000010100000
1000000101011110
1000001001101100
1000000000001111
1000000000111000
1000000000111101
0000000101010001
1000000001011001
0000000000000000
1000000010111011
0000000000100010
1000000001011001
0000000000000000
1000000001011110
1000001101001101
0000000001100011
0000000000000000
1000000100101011
1000000001001110
1000000100011111
1000000000010001
1000000000111110
1000000100001100
0000000100000101
0000000000011100
0000000000000000
1000000011000100
