1000000100111001
1000000110010101
0000000000001101
0000000010101110
1000000000101101
0000000001111111
0000000010011110
1000000111000011
1000110001111010
1001000011000000
1000111100110011
1001001010111000
1000010000110010
1000001011001100
1000000010001100
1000000010010101
1000000000001111
1000001000010111
1000001101011111
1000001111111000
1000000000000100
0000000010001111
1000011010001000
1000010001010010
1001001001101011
1001001111100110
1000001100111110
1000010011011011
0000000001011111
0000000111011101
1001000001000010
1001010000110001
1000111101010101
1001001111101111
1000011011010101
1000100010111110
0000000110001000
1000000110101111
1000001000110110
0000000110010101
1000010001111001
1000000011111111
0000000101101100
0000000100011010
1000101000000111
1000011101010110
1000110010111100
1000101101111011
1000010000100010
1000010100101101
1000011011010111
1000001000100111
1000000010101100
0000000001100110
1001001000001000
1001001001000100
1001001010100011
1001010011111101
1000101010100111
1000110110101101
1000101110000101
1000111010001000
1000101010000111
1000100000001010
1000000110100001
1000000001011001
1000010011001001
1000010111000010
1001000010001110
1001010001011110
1000011000000101
1000000110100011
1000000111100000
0000001000010010
0000000010101000
1000000100111100
1000100010011000
1000110111101000
1000100001011110
1000111000011110
1000100011000100
1000110111100000
1000010010101011
1000001100101010
1001001111101010
1001001011101011
1001001000111110
1001010100101110
1000000010011100
1000000100011111
1000010000101111
1000010101110011
1000000100010110
1000010111100001
1000111001010101
1000111110001101
1001000100000000
1001000110100001
0000000101100010
0000000101100100
1000011101110100
1000011011100000
1000001111111000
1000000100000101
1000100111011100
1001001000011111
1000000111100010
1000010101001111
1000101101001010
1001000000000111
1000000111100001
1000000011001011
0000000001000110
1000000000001110
1000011111100100
1000010110100100
1000001110110000
1000000110100111
1001000110001000
1000111001101001
1000111101110011
1001001111111011
1000010010001011
1000010101111101
1000011000010110
1000100010110111
1000000001010010
0000000110001001
1000000110111001
0000001000100011
1000010001111000
1000010011010011
1000111000010000
1001001011100111
0000000000110001
1000001000000010
1000011011101110
1000100001111000
0000000000000101
0000000111000100
1000000111010111
0000000101010001
1001000011000110
1001000110011011
0000000101011001
0000000100000010
1000000110001100
1000000111001010
1000001100100000
1000010011001000
1000011110011111
1000101011110001
1000000001101101
0000000110001001
1000000011011110
0000000011000100
1000000001010110
0000000001000100
1000000110101110
1000000001101010
1000010110101110
1000011110101101
0000000101111111
1000000111110101
1000010110111101
0000000001001001
1000110101111010
1001001001110100
1000001111011011
1000011110010001
1000100000111001
1000010000010010
1000000100011111
1000000101111010
1000010000001100
1000001101000000
1000101101100111
1000100111010110
1000000011100010
1000000101110111
0000000100100111
1000000010111000
1000100110010011
1000110010111000
