1000000000000011
1000011000110110
1000001110010010
1000011001001110
1000001000101101
1000000001100010
1000001010001001
1000000001001111
0000001110111110
0000000000111111
0000000111101110
0000001110011111
0000000100010101
0000000100010011
1000000000101110
0000011011001101
1000010101101100
1000011011100010
0000001110101011
1000000001011001
1000000011111001
0000000001000111
1000000001010001
0000000001011100
0000000000111011
1000000100100010
0000001110010001
1000000000101011
0000000001011001
0000000110011111
1000011100000111
0000001000011001
0000000101010100
0000000000001111
1000000000010000
1000000011100011
1000000011100101
1000000011101000
0000000100010010
0000000110001110
1000000101000000
0000000111010000
1000000011010001
0000000000111001
1000000000101010
0000000001001001
1000000100100001
0000001100000010
1000000011001011
0000001011100000
1000001000101000
1000000001010000
1000000000010110
0000001011110001
0000001110001111
0000001101000000
1000000001011010
0000001011010001
1000000001011001
0000001101101111
0000000010010011
0000000001101110
1000000001000000
1000000111010000
0000000010111000
1000001000000000
0000000101110101
1000001010100110
0000001110110011
1000000011110011
0000000000101111
0000001010101011
0000000001000010
0000000000111111
0000000101101011
1000001000101011
0000001010010001
1000001001000011
0000000001000001
0000000110110001
1000000000001000
1000001000000110
1000000000111110
0000001110011000
0000000001000011
0000001011101010
1000000000010001
1000000111001000
1000000001000100
1000000000101011
1000000100100111
0000000010000010
