0000000101001010
1000000010101001
0000000110001100
0000000001111100
1000011111001011
1000001110001100
1001000111101110
1001100101011010
0000000010011101
1000000101000110
0000000011011101
1000000110110101
1000011101101110
1000011010011100
0000000110111001
0000000011100010
1000111010110110
1000001000000010
0000000110001111
1000001111011000
0000000100000100
0000000011110000
1000001110111010
1000001010100101
1000000000100010
0000000000100010
1001001001100100
1000111110111101
0000000100111100
0000000100001110
0000000101001101
1000000110101001
0000000100110100
1000000101100001
1000010101110010
1000000100010110
0000000010110010
1000000011101101
1000111111011010
1000101011010001
1000100110111110
1001010011001000
0000000100001100
0000000010111101
1000100110100001
1000010000011101
1000011010110101
1000000010111011
1000100110011100
1000000001110110
1000010111100100
1000000110111110
0000000010011111
0000000110101011
0000000001010111
0000000011011100
1000000001001111
1000000001011100
1000000100100111
0000001010101000
0000000101001101
1000001000000100
1000100110111101
1000001101100100
1001100010011010
1001000001010011
1000000010111110
1000000010011111
0000000110100001
1000000011110100
1000000111011100
1000001111010010
0000000100111101
0000000011000011
0000000101111001
1000000101011101
0000000011111111
1000001000101101
0000000101110000
1000001100000111
0000000101000110
1000001000111111
1001000101101101
1001001011110110
1000000010101011
0000000111110001
1000000001101000
0000000010100011
0000000010100101
0000000111111111
1000111010011001
1001001110010101
1000101100111001
1001010010000001
0000000010100000
1000000101001111
0000000010110011
1000000110110011
1000000100000110
0000000101111010
1000010001111110
0000000001100110
1000110000101000
1000100101110101
0000101101100101
0000011110100010
0000011001011110
0000101001001100
0000000011100110
1000000110101001
1000001110011100
1000100000110101
0000000110110000
0000000010111011
1000011111100011
1000001001111000
1000110010101100
1000110011100010
1000000110111000
0000001001100101
0000000100010000
1000000100111000
1000000001011111
1000001101001000
1000100101001000
1000010011001000
0000000000010011
0000000100001101
0000000011010000
0000000111101010
1000100011001111
1000010000110111
0000000111010001
1000001010001110
0000000111011101
1000001101000100
1000011010010011
1000010000110001
0000000011110000
1000000101111000
0000000000001100
0000000011111010
0000000000101110
0000000000011010
0000000101011001
1000000111011000
1000000000100110
1000000011010011
1000111011100101
1000011100010011
0000011000111110
0000001101011101
1000010001101110
1001011110000100
0000000110001001
1000000111001001
0000000101001100
1000000101010001
0000000110110110
1000010011001101
1000100101111000
1000101001100000
1000000001101110
0000000010110111
1000111011000100
1000011111110110
0000000001001100
1000000001000000
1000000000001011
1000000010010100
1000010111111011
0000000000110001
0000000001010000
0000000000110001
1000100001011111
1000011011000010
1000001011010000
1000001001101011
0000000111110111
1000001101010010
0000000000000101
1000000111001010
0000000011000001
1000000111010000
